TRT-100300-EntropyCalibration2
input_1:0: 3c010a14
conv1/convolution:0: 3d0b7086
Reshape__113:0_output: 31a60d5b
ONNXTRT_Broadcast_output: 31a60d5b
conv1/BiasAdd:0: 3d0b7086
bn_conv1/batchnorm/mul__10_output: 3d62b50e
bn_conv1/batchnorm/mul_1:0: 3dd92c80
bn_conv1/batchnorm/sub__11_output: 3c296b24
bn_conv1/batchnorm/add_1:0: 3de3af36
activation_1/Relu:0: 3de355a8
block_1a_conv_shortcut/BiasAdd:0: 3d14edf6
block_1a_bn_shortcut/batchnorm/mul__22_output: 3e788ca2
block_1a_bn_shortcut/batchnorm/mul_1:0: 3d88cab4
block_1a_bn_shortcut/batchnorm/sub__23_output: 3cac2012
block_1a_bn_shortcut/batchnorm/add_1:0: 3cb23b6f
block_1a_conv_1/convolution:0: 3e429cd3
Reshape__115:0_output: 31e11e29
ONNXTRT_Broadcast_1_output: 31e11e29
block_1a_conv_1/BiasAdd:0: 3e429cd3
block_1a_bn_1/batchnorm/mul__14_output: 3d97cfd7
block_1a_bn_1/batchnorm/mul_1:0: 3e18ceef
block_1a_bn_1/batchnorm/sub__15_output: 3ccaa65b
block_1a_bn_1/batchnorm/add_1:0: 3dec091e
block_1a_relu_1/Relu:0: 3d3b8c04
block_1a_conv_2/convolution:0: 3db7871d
Reshape__117:0_output: 31ae4bc8
ONNXTRT_Broadcast_3_output: 31ae4bc8
block_1a_conv_2/BiasAdd:0: 3db7871d
block_1a_bn_2/batchnorm/mul__20_output: 3e456d78
block_1a_bn_2/batchnorm/mul_1:0: 3e00e329
block_1a_bn_2/batchnorm/sub__21_output: 3d9d559e
block_1a_bn_2/batchnorm/add_1:0: 3d4cab2b
add_1/add:0: 3d71098b
block_1a_relu/Relu:0: 3d76aa90
block_1b_conv_shortcut/BiasAdd:0: 3cbcc767
block_1b_bn_shortcut/batchnorm/mul__34_output: 3dbd9ab8
block_1b_bn_shortcut/batchnorm/mul_1:0: 3e03be12
block_1b_bn_shortcut/batchnorm/sub__35_output: 3ccc079d
block_1b_bn_shortcut/batchnorm/add_1:0: 3db29028
block_1b_conv_1/convolution:0: 3d684dba
Reshape__119:0_output: 31eb391f
ONNXTRT_Broadcast_5_output: 31eb391f
block_1b_conv_1/BiasAdd:0: 3d684dba
block_1b_bn_1/batchnorm/mul__26_output: 3dceab93
block_1b_bn_1/batchnorm/mul_1:0: 3dd187df
block_1b_bn_1/batchnorm/sub__27_output: 3cefd2d4
block_1b_bn_1/batchnorm/add_1:0: 3d92794f
block_1b_relu_1/Relu:0: 3d718b6b
block_1b_conv_2/convolution:0: 3cc5b5a4
Reshape__121:0_output: 31e7fdd9
ONNXTRT_Broadcast_7_output: 31e7fdd9
block_1b_conv_2/BiasAdd:0: 3cc5b5a3
block_1b_bn_2/batchnorm/mul__32_output: 3e00c649
block_1b_bn_2/batchnorm/mul_1:0: 3e047161
block_1b_bn_2/batchnorm/sub__33_output: 3cf28d32
block_1b_bn_2/batchnorm/add_1:0: 3d9083ce
add_2/add:0: 3e0065eb
block_1b_relu/Relu:0: 3df21e9b
block_2a_conv_shortcut/BiasAdd:0: 3c25e159
block_2a_bn_shortcut/batchnorm/mul__46_output: 3e3987b0
block_2a_bn_shortcut/batchnorm/mul_1:0: 3d8e1310
block_2a_bn_shortcut/batchnorm/sub__47_output: 3cd450fd
block_2a_bn_shortcut/batchnorm/add_1:0: 3c9083e5
block_2a_conv_1/convolution:0: 3d6fc855
Reshape__123:0_output: 3203fc6a
ONNXTRT_Broadcast_9_output: 3203fc6a
block_2a_conv_1/BiasAdd:0: 3d6fc855
block_2a_bn_1/batchnorm/mul__38_output: 3e2ca3aa
block_2a_bn_1/batchnorm/mul_1:0: 3df4778b
block_2a_bn_1/batchnorm/sub__39_output: 3d43c758
block_2a_bn_1/batchnorm/add_1:0: 3da16d21
block_2a_relu_1/Relu:0: 3e0394a2
block_2a_conv_2/convolution:0: 3d3b88b2
Reshape__125:0_output: 31fc2216
ONNXTRT_Broadcast_11_output: 31fc2216
block_2a_conv_2/BiasAdd:0: 3d3b88b2
block_2a_bn_2/batchnorm/mul__44_output: 3de76a8b
block_2a_bn_2/batchnorm/mul_1:0: 3e10c50f
block_2a_bn_2/batchnorm/sub__45_output: 3d31c53b
block_2a_bn_2/batchnorm/add_1:0: 3d94276b
add_3/add:0: 3de729cf
block_2a_relu/Relu:0: 3dee3af2
block_2b_conv_shortcut/BiasAdd:0: 3cbb5111
block_2b_bn_shortcut/batchnorm/mul__58_output: 3e664605
block_2b_bn_shortcut/batchnorm/mul_1:0: 3e0ae0c7
block_2b_bn_shortcut/batchnorm/sub__59_output: 3cd2847a
block_2b_bn_shortcut/batchnorm/add_1:0: 3d86ba75
block_2b_conv_1/convolution:0: 3d15f181
Reshape__127:0_output: 31c5cf05
ONNXTRT_Broadcast_13_output: 31c5cf05
block_2b_conv_1/BiasAdd:0: 3d15f180
block_2b_bn_1/batchnorm/mul__50_output: 3e021c4e
block_2b_bn_1/batchnorm/mul_1:0: 3db0bed5
block_2b_bn_1/batchnorm/sub__51_output: 3d2f0fbd
block_2b_bn_1/batchnorm/add_1:0: 3dcec26a
block_2b_relu_1/Relu:0: 3d891bb9
block_2b_conv_2/convolution:0: 3c7bc75a
Reshape__129:0_output: 31c51f52
ONNXTRT_Broadcast_15_output: 31c51f52
block_2b_conv_2/BiasAdd:0: 3c7bc75a
block_2b_bn_2/batchnorm/mul__56_output: 3e641775
block_2b_bn_2/batchnorm/mul_1:0: 3e125ac1
block_2b_bn_2/batchnorm/sub__57_output: 3cdbec1b
block_2b_bn_2/batchnorm/add_1:0: 3d82849e
add_4/add:0: 3de52960
block_2b_relu/Relu:0: 3e1b45d9
block_3a_conv_shortcut/BiasAdd:0: 3c0c286b
block_3a_bn_shortcut/batchnorm/mul__70_output: 3d0a8ba3
block_3a_bn_shortcut/batchnorm/mul_1:0: 3d68f5cc
block_3a_bn_shortcut/batchnorm/sub__71_output: 3d0457dd
block_3a_bn_shortcut/batchnorm/add_1:0: 3d549449
block_3a_conv_1/convolution:0: 3d87f177
Reshape__131:0_output: 31b5e077
ONNXTRT_Broadcast_17_output: 31b5e077
block_3a_conv_1/BiasAdd:0: 3d87f177
block_3a_bn_1/batchnorm/mul__62_output: 3de6f05e
block_3a_bn_1/batchnorm/mul_1:0: 3e05ef56
block_3a_bn_1/batchnorm/sub__63_output: 3d477467
block_3a_bn_1/batchnorm/add_1:0: 3e0c3ff6
block_3a_relu_1/Relu:0: 3e2ba120
block_3a_conv_2/convolution:0: 3da51990
Reshape__133:0_output: 31ee6a50
ONNXTRT_Broadcast_19_output: 31ee6a50
block_3a_conv_2/BiasAdd:0: 3da51990
block_3a_bn_2/batchnorm/mul__68_output: 3e428ec9
block_3a_bn_2/batchnorm/mul_1:0: 3e29c12b
block_3a_bn_2/batchnorm/sub__69_output: 3d6d2e63
block_3a_bn_2/batchnorm/add_1:0: 3dcaec47
add_5/add:0: 3e1b90c5
block_3a_relu/Relu:0: 3ddb3887
block_3b_conv_shortcut/BiasAdd:0: 3cbce473
block_3b_bn_shortcut/batchnorm/mul__82_output: 3ef99b62
block_3b_bn_shortcut/batchnorm/mul_1:0: 3e13f41d
block_3b_bn_shortcut/batchnorm/sub__83_output: 3d6ea092
block_3b_bn_shortcut/batchnorm/add_1:0: 3d4c522b
block_3b_conv_1/convolution:0: 3d0f318d
Reshape__135:0_output: 320cc604
ONNXTRT_Broadcast_21_output: 320cc604
block_3b_conv_1/BiasAdd:0: 3d0f318e
block_3b_bn_1/batchnorm/mul__74_output: 3e3f059f
block_3b_bn_1/batchnorm/mul_1:0: 3dbc1fb4
block_3b_bn_1/batchnorm/sub__75_output: 3d849e78
block_3b_bn_1/batchnorm/add_1:0: 3da55f89
block_3b_relu_1/Relu:0: 3dcdd28c
block_3b_conv_2/convolution:0: 3c780d92
Reshape__137:0_output: 31c5e0aa
ONNXTRT_Broadcast_23_output: 31c5e0aa
block_3b_conv_2/BiasAdd:0: 3c780d92
block_3b_bn_2/batchnorm/mul__80_output: 3eaa7444
block_3b_bn_2/batchnorm/mul_1:0: 3ddcdf2b
block_3b_bn_2/batchnorm/sub__81_output: 3d58c1ca
block_3b_bn_2/batchnorm/add_1:0: 3db0b712
add_6/add:0: 3e1f33d7
block_3b_relu/Relu:0: 3de16894
block_4a_conv_shortcut/BiasAdd:0: 3c265273
block_4a_bn_shortcut/batchnorm/mul__94_output: 3dd4009d
block_4a_bn_shortcut/batchnorm/mul_1:0: 3e5739f6
block_4a_bn_shortcut/batchnorm/sub__95_output: 3cc128cd
block_4a_bn_shortcut/batchnorm/add_1:0: 3e50e6c2
block_4a_conv_1/convolution:0: 3d2e25b4
Reshape__139:0_output: 320447b1
ONNXTRT_Broadcast_25_output: 320447b1
block_4a_conv_1/BiasAdd:0: 3d2e25b4
block_4a_bn_1/batchnorm/mul__86_output: 3e289108
block_4a_bn_1/batchnorm/mul_1:0: 3e29b2e7
block_4a_bn_1/batchnorm/sub__87_output: 3d4b30fc
block_4a_bn_1/batchnorm/add_1:0: 3dbff4d3
block_4a_relu_1/Relu:0: 3daaee81
block_4a_conv_2/convolution:0: 3cc387b8
Reshape__141:0_output: 31f321af
ONNXTRT_Broadcast_27_output: 31f321af
block_4a_conv_2/BiasAdd:0: 3cc387b9
block_4a_bn_2/batchnorm/mul__92_output: 3e94d870
block_4a_bn_2/batchnorm/mul_1:0: 3e404cec
block_4a_bn_2/batchnorm/sub__93_output: 3d0eb802
block_4a_bn_2/batchnorm/add_1:0: 3e3eb292
add_7/add:0: 3ec7cca9
block_4a_relu/Relu:0: 3ec7cca9
block_4b_conv_shortcut/BiasAdd:0: 3df73d3e
block_4b_bn_shortcut/batchnorm/mul__106_output: 3d1a89be
block_4b_bn_shortcut/batchnorm/mul_1:0: 3d96e059
block_4b_bn_shortcut/batchnorm/sub__107_output: 3c3f22bc
block_4b_bn_shortcut/batchnorm/add_1:0: 3d92edc6
block_4b_conv_1/convolution:0: 3e687860
Reshape__143:0_output: 31ee2bc9
ONNXTRT_Broadcast_29_output: 31ee2bc9
block_4b_conv_1/BiasAdd:0: 3e687860
block_4b_bn_1/batchnorm/mul__98_output: 3ddc6ca7
block_4b_bn_1/batchnorm/mul_1:0: 3e1db447
block_4b_bn_1/batchnorm/sub__99_output: 3ce9eb39
block_4b_bn_1/batchnorm/add_1:0: 3e199719
block_4b_relu_1/Relu:0: 3e199719
block_4b_conv_2/convolution:0: 3e543df6
Reshape__145:0_output: 31fba56d
ONNXTRT_Broadcast_31_output: 31fba56d
block_4b_conv_2/BiasAdd:0: 3e543df6
block_4b_bn_2/batchnorm/mul__104_output: 3dca82e9
block_4b_bn_2/batchnorm/mul_1:0: 3df336dc
block_4b_bn_2/batchnorm/sub__105_output: 3d45d1fd
block_4b_bn_2/batchnorm/add_1:0: 3ddba960
add_8/add:0: 3ddd4ffc
block_4b_relu/Relu:0: 3d80c4f7
output_cov/convolution:0: 3e3dc495
Reshape__147:0_output: 3c60e55a
ONNXTRT_Broadcast_33_output: 3c60e55a
output_cov/BiasAdd:0: 3e44a1e7
output_cov/Sigmoid:0: 3bed8e13
output_bbox/convolution:0: 3d9e875d
Reshape__149:0_output: 3b4a4f27
ONNXTRT_Broadcast_36_output: 3b4a4f27
output_bbox/BiasAdd:0: 3da418a9
